{
    "version": "1.0",
    "truncation": null,
    "padding": null,
    "added_tokens": [
      {
        "id": 0,
        "content": "[UNK]",
        "single_word": false,
        "lstrip": false,
        "rstrip": false,
        "normalized": false,
        "special": true
      }
    ],
    "normalizer": {
      "type": "Lowercase"
    },
    "pre_tokenizer": {
      "type": "Whitespace"
    },
    "post_processor": null,
    "decoder": null,
    "model": {
      "type": "BPE",
      "dropout": null,
      "unk_token": "[UNK]",
      "continuing_subword_prefix": "@",
      "end_of_word_suffix": null,
      "fuse_unk": false,
      "vocab": {
        "[UNK]": 0,
        "'": 1,
        "a": 2,
        "b": 3,
        "c": 4,
        "d": 5,
        "e": 6,
        "f": 7,
        "g": 8,
        "h": 9,
        "i": 10,
        "j": 11,
        "k": 12,
        "l": 13,
        "m": 14,
        "n": 15,
        "o": 16,
        "p": 17,
        "q": 18,
        "r": 19,
        "s": 20,
        "t": 21,
        "u": 22,
        "v": 23,
        "w": 24,
        "x": 25,
        "y": 26,
        "z": 27,
        "@o": 28,
        "@n": 29,
        "@f": 30,
        "@u": 31,
        "@d": 32,
        "@e": 33,
        "@l": 34,
        "@m": 35,
        "@p": 36,
        "@i": 37,
        "@g": 38,
        "@r": 39,
        "@b": 40,
        "@a": 41,
        "@k": 42,
        "@c": 43,
        "@h": 44,
        "@s": 45,
        "@y": 46,
        "@j": 47,
        "@t": 48,
        "@v": 49,
        "@w": 50,
        "@z": 51,
        "@x": 52,
        "@q": 53,
        "th": 54,
        "the": 55,
        "@er": 56,
        "@nd": 57,
        "@in": 58,
        "@ed": 59,
        "@ou": 60,
        "@at": 61,
        "@en": 62,
        "and": 63,
        "@or": 64,
        "@es": 65,
        "to": 66,
        "of": 67,
        "@on": 68,
        "@is": 69,
        "@ing": 70,
        "@ar": 71,
        "@it": 72,
        "@as": 73,
        "@an": 74,
        "@ll": 75,
        "in": 76,
        "@re": 77,
        "wh": 78,
        "he": 79,
        "@om": 80,
        "be": 81,
        "ha": 82,
        "@le": 83,
        "@ot": 84,
        "@ow": 85,
        "@ic": 86,
        "@ut": 87,
        "it": 88,
        "@ld": 89,
        "that": 90,
        "sh": 91,
        "@ly": 92,
        "was": 93,
        "@gh": 94,
        "@id": 95,
        "@se": 96,
        "on": 97,
        "@ve": 98,
        "@et": 99,
        "@ent": 100,
        "you": 101,
        "@im": 102,
        "@st": 103,
        "@ce": 104,
        "@ith": 105,
        "for": 106,
        "@ir": 107,
        "@ion": 108,
        "as": 109,
        "@ay": 110,
        "his": 111,
        "@al": 112,
        "with": 113,
        "@ur": 114,
        "st": 115,
        "@ter": 116,
        "her": 117,
        "@ver": 118,
        "@ch": 119,
        "re": 120,
        "@ad": 121,
        "@ght": 122,
        "an": 123,
        "not": 124,
        "had": 125,
        "is": 126,
        "sa": 127,
        "at": 128,
        "@oo": 129,
        "@her": 130,
        "but": 131,
        "@ould": 132,
        "she": 133,
        "@ct": 134,
        "@ess": 135,
        "fr": 136,
        "se": 137,
        "@am": 138,
        "pr": 139,
        "we": 140,
        "him": 141,
        "so": 142,
        "@ill": 143,
        "@ain": 144,
        "su": 145,
        "@ight": 146,
        "me": 147,
        "@ere": 148,
        "@all": 149,
        "@ke": 150,
        "@il": 151,
        "de": 152,
        "they": 153,
        "my": 154,
        "all": 155,
        "@est": 156,
        "@ich": 157,
        "ch": 158,
        "ne": 159,
        "by": 160,
        "have": 161,
        "@ome": 162,
        "@pp": 163,
        "@ck": 164,
        "li": 165,
        "this": 166,
        "@ore": 167,
        "do": 168,
        "con": 169,
        "@us": 170,
        "which": 171,
        "@ri": 172,
        "@ul": 173,
        "up": 174,
        "said": 175,
        "from": 176,
        "@th": 177,
        "@ard": 178,
        "@ge": 179,
        "@ra": 180,
        "or": 181,
        "one": 182,
        "no": 183,
        "ex": 184,
        "were": 185,
        "there": 186,
        "@os": 187,
        "@pe": 188,
        "man": 189,
        "@ble": 190,
        "who": 191,
        "al": 192,
        "@ant": 193,
        "@ie": 194,
        "@ous": 195,
        "@ust": 196,
        "@ation": 197,
        "fe": 198,
        "@and": 199,
        "them": 200,
        "@ers": 201,
        "@lf": 202,
        "when": 203,
        "@ind": 204,
        "@ast": 205,
        "@ood": 206,
        "go": 207,
        "kn": 208,
        "@un": 209,
        "@our": 210,
        "@ist": 211,
        "@em": 212,
        "are": 213,
        "@out": 214,
        "would": 215,
        "@art": 216,
        "their": 217,
        "@ong": 218,
        "what": 219,
        "le": 220,
        "en": 221,
        "if": 222,
        "un": 223,
        "@ound": 224,
        "@if": 225,
        "com": 226,
        "ab": 227,
        "out": 228,
        "wor": 229,
        "@ol": 230,
        "br": 231,
        "will": 232,
        "int": 233,
        "@ak": 234,
        "mis": 235,
        "@ate": 236,
        "@op": 237,
        "@um": 238,
        "@ough": 239,
        "@la": 240,
        "@itt": 241,
        "ar": 242,
        "@ook": 243,
        "@ish": 244,
        "@ap": 245,
        "@one": 246,
        "been": 247,
        "@own": 248,
        "@ame": 249,
        "then": 250,
        "@ven": 251,
        "@self": 252,
        "@ive": 253,
        "tr": 254,
        "ro": 255,
        "@ig": 256,
        "@reat": 257,
        "fa": 258,
        "af": 259,
        "sp": 260,
        "@ery": 261,
        "qu": 262,
        "@ity": 263,
        "@ort": 264,
        "@ost": 265,
        "tw": 266,
        "ag": 267,
        "could": 268,
        "am": 269,
        "@el": 270,
        "@ake": 271,
        "any": 272,
        "some": 273,
        "@ure": 274,
        "your": 275,
        "more": 276,
        "can": 277,
        "tim": 278,
        "@ep": 279,
        "@nder": 280,
        "ever": 281,
        "@ther": 282,
        "@ence": 283,
        "@fe": 284,
        "into": 285,
        "@ry": 286,
        "@ose": 287,
        "now": 288,
        "@au": 289,
        "@ag": 290,
        "cl": 291,
        "very": 292,
        "@qu": 293,
        "@ved": 294,
        "bo": 295,
        "other": 296,
        "did": 297,
        "@ance": 298,
        "than": 299,
        "@ittle": 300,
        "little": 301,
        "@ine": 302,
        "@ies": 303,
        "@oun": 304,
        "look": 305,
        "@way": 306,
        "@urn": 307,
        "like": 308,
        "@ite": 309,
        "gr": 310,
        "@ass": 311,
        "@ear": 312,
        "@ach": 313,
        "lo": 314,
        "@able": 315,
        "@ought": 316,
        "@other": 317,
        "know": 318,
        "time": 319,
        "im": 320,
        "us": 321,
        "co": 322,
        "@fore": 323,
        "@ell": 324,
        "how": 325,
        "@hing": 326,
        "ad": 327,
        "day": 328,
        "@cc": 329,
        "@ack": 330,
        "about": 331,
        "@ade": 332,
        "@ice": 333,
        "see": 334,
        "over": 335,
        "@ci": 336,
        "@ide": 337,
        "@pt": 338,
        "dis": 339,
        "@ink": 340,
        "too": 341,
        "@wn": 342,
        "great": 343,
        "after": 344,
        "per": 345,
        "pro": 346,
        "again": 347,
        "upon": 348,
        "@ment": 349,
        "hand": 350,
        "has": 351,
        "@ree": 352,
        "@ked": 353,
        "@ather": 354,
        "only": 355,
        "car": 356,
        "@tain": 357,
        "@ally": 358,
        "str": 359,
        "fl": 360,
        "mar": 361,
        "po": 362,
        "@ab": 363,
        "well": 364,
        "should": 365,
        "@pl": 366,
        "say": 367,
        "good": 368,
        "@ings": 369,
        "two": 370,
        "thr": 371,
        "@ud": 372,
        "our": 373,
        "@ving": 374,
        "@oss": 375,
        "@ty": 376,
        "down": 377,
        "@ire": 378,
        "pe": 379,
        "before": 380,
        "@ile": 381,
        "app": 382,
        "@ves": 383,
        "every": 384,
        "its": 385,
        "pl": 386,
        "old": 387,
        "cr": 388,
        "off": 389,
        "@ick": 390,
        "made": 391,
        "@ied": 392,
        "long": 393,
        "bl": 394,
        "@age": 395,
        "@ber": 396,
        "where": 397,
        "@ress": 398,
        "fir": 399,
        "mu": 400,
        "@ang": 401,
        "never": 402,
        "must": 403,
        "sm": 404,
        "such": 405,
        "@ull": 406,
        "@ful": 407,
        "@ions": 408,
        "@ft": 409,
        "pre": 410,
        "came": 411,
        "miss": 412,
        "@ward": 413,
        "@ro": 414,
        "@een": 415,
        "@orn": 416,
        "@ue": 417,
        "@ild": 418,
        "even": 419,
        "under": 420,
        "these": 421,
        "come": 422,
        "@ord": 423,
        "part": 424,
        "sc": 425,
        "fo": 426,
        "@ated": 427,
        "@ness": 428,
        "rem": 429,
        "ind": 430,
        "bec": 431,
        "may": 432,
        "@per": 433,
        "think": 434,
        "much": 435,
        "@ious": 436,
        "mister": 437,
        "way": 438,
        "@ount": 439,
        "@led": 440,
        "ey": 441,
        "let": 442,
        "@ath": 443,
        "thought": 444,
        "@ect": 445,
        "back": 446,
        "spe": 447,
        "gl": 448,
        "bet": 449,
        "@ady": 450,
        "@ff": 451,
        "@ans": 452,
        "just": 453,
        "res": 454,
        "first": 455,
        "@ise": 456,
        "ho": 457,
        "here": 458,
        "des": 459,
        "own": 460,
        "ob": 461,
        "@ried": 462,
        "@ced": 463,
        "@ces": 464,
        "pla": 465,
        "mo": 466,
        "cont": 467,
        "@ered": 468,
        "@ary": 469,
        "went": 470,
        "himself": 471,
        "men": 472,
        "@me": 473,
        "@co": 474,
        "@int": 475,
        "might": 476,
        "@ily": 477,
        "seem": 478,
        "@ip": 479,
        "@oth": 480,
        "beg": 481,
        "@ouse": 482,
        "wat": 483,
        "comp": 484,
        "@ave": 485,
        "sw": 486,
        "through": 487,
        "@igh": 488,
        "away": 489,
        "em": 490,
        "get": 491,
        "head": 492,
        "don": 493,
        "imp": 494,
        "bel": 495,
        "@llow": 496,
        "@ened": 497,
        "without": 498,
        "@iz": 499,
        "pass": 500,
        "most": 501,
        "life": 502,
        "ear": 503,
        "make": 504,
        "cons": 505,
        "som": 506,
        "turn": 507,
        "@ac": 508,
        "@iv": 509,
        "shall": 510,
        "@ng": 511,
        "those": 512,
        "eyes": 513,
        "pres": 514,
        "acc": 515,
        "house": 516,
        "att": 517,
        "somet": 518,
        "jo": 519,
        "still": 520,
        "call": 521,
        "@ew": 522,
        "@ens": 523,
        "@red": 524,
        "op": 525,
        "night": 526,
        "wom": 527,
        "last": 528,
        "@ark": 529,
        "nothing": 530,
        "@ign": 531,
        "tell": 532,
        "@ause": 533,
        "la": 534,
        "new": 535,
        "sl": 536,
        "@ction": 537,
        "@iff": 538,
        "take": 539,
        "being": 540,
        "comm": 541,
        "many": 542,
        "@les": 543,
        "inter": 544,
        "word": 545,
        "@atter": 546,
        "wr": 547,
        "@are": 548,
        "found": 549,
        "ret": 550,
        "@ons": 551,
        "ser": 552,
        "@ase": 553,
        "while": 554,
        "@ory": 555,
        "saw": 556,
        "year": 557,
        "@ix": 558,
        "put": 559,
        "@ople": 560,
        "@iend": 561,
        "far": 562,
        "@dy": 563,
        "young": 564,
        "@aking": 565,
        "once": 566,
        "friend": 567,
        "people": 568,
        "@ether": 569,
        "@air": 570,
        "@ible": 571,
        "work": 572,
        "@ors": 573,
        "room": 574,
        "@ently": 575,
        "@pect": 576,
        "three": 577,
        "@ted": 578,
        "yet": 579,
        "@ever": 580,
        "same": 581,
        "count": 582,
        "father": 583,
        "right": 584,
        "child": 585,
        "cour": 586,
        "another": 587,
        "place": 588,
        "@ne": 589,
        "though": 590,
        "@ition": 591,
        "want": 592,
        "@less": 593,
        "@ince": 594,
        "king": 595,
        "end": 596,
        "happ": 597,
        "heart": 598,
        "@ian": 599,
        "nat": 600,
        "@thing": 601,
        "gra": 602,
        "face": 603,
        "took": 604,
        "love": 605,
        "dist": 606,
        "@ace": 607,
        "arm": 608,
        "inst": 609,
        "rep": 610,
        "@man": 611,
        "@alk": 612,
        "@ult": 613,
        "nor": 614,
        "@cl": 615,
        "te": 616,
        "set": 617,
        "ple": 618,
        "char": 619,
        "looked": 620,
        "missus": 621,
        "light": 622,
        "@gg": 623,
        "mind": 624,
        "asked": 625,
        "supp": 626,
        "wa": 627,
        "ll": 628,
        "yes": 629,
        "left": 630,
        "@cess": 631,
        "ac": 632,
        "@ub": 633,
        "@ting": 634,
        "@ished": 635,
        "pers": 636,
        "things": 637,
        "@augh": 638,
        "@ents": 639,
        "sir": 640,
        "@ways": 641,
        "@te": 642,
        "mom": 643,
        "near": 644,
        "@irl": 645,
        "@ations": 646,
        "@sw": 647,
        "sat": 648,
        "find": 649,
        "@sel": 650,
        "world": 651,
        "@der": 652,
        "@ia": 653,
        "@rew": 654,
        "@ject": 655,
        "@ower": 656,
        "@fect": 657,
        "give": 658,
        "@av": 659,
        "gen": 660,
        "cap": 661,
        "gu": 662,
        "why": 663,
        "@ict": 664,
        "mother": 665,
        "always": 666,
        "@ling": 667,
        "@so": 668,
        "@pped": 669,
        "soon": 670,
        "@iver": 671,
        "answ": 672,
        "@den": 673,
        "form": 674,
        "war": 675,
        "heard": 676,
        "thing": 677,
        "seemed": 678,
        "something": 679,
        "door": 680,
        "sub": 681,
        "@ph": 682,
        "girl": 683,
        "@ange": 684,
        "god": 685,
        "@und": 686,
        "wind": 687,
        "mon": 688,
        "diff": 689,
        "because": 690,
        "@ertain": 691,
        "@de": 692,
        "told": 693,
        "going": 694,
        "home": 695,
        "ke": 696,
        "@ither": 697,
        "got": 698,
        "el": 699,
        "@orm": 700,
        "@ret": 701,
        "high": 702,
        "@ock": 703,
        "sur": 704,
        "@ched": 705,
        "eng": 706,
        "ma": 707,
        "gi": 708,
        "@land": 709,
        "hands": 710,
        "woman": 711,
        "moment": 712,
        "@ank": 713,
        "ph": 714,
        "vo": 715,
        "poss": 716,
        "@aut": 717,
        "follow": 718,
        "ve": 719,
        "dr": 720,
        "@ning": 721,
        "feel": 722,
        "@ple": 723,
        "ev": 724,
        "@lt": 725,
        "@ical": 726,
        "return": 727,
        "boy": 728,
        "knew": 729,
        "reg": 730,
        "rest": 731,
        "each": 732,
        "kind": 733,
        "@ner": 734,
        "inf": 735,
        "conf": 736,
        "tra": 737,
        "cle": 738,
        "@ush": 739,
        "oh": 740,
        "hel": 741,
        "sil": 742,
        "@orr": 743,
        "rel": 744,
        "@ual": 745,
        "ass": 746,
        "wo": 747,
        "@ars": 748,
        "certain": 749,
        "against": 750,
        "water": 751,
        "bre": 752,
        "@cept": 753,
        "@uck": 754,
        "belie": 755,
        "exp": 756,
        "hard": 757,
        "prop": 758,
        "years": 759,
        "beh": 760,
        "quite": 761,
        "@iness": 762,
        "unt": 763,
        "@ined": 764,
        "side": 765,
        "del": 766,
        "appear": 767,
        "four": 768,
        "few": 769,
        "better": 770,
        "done": 771,
        "@ool": 772,
        "half": 773,
        "@ited": 774,
        "@ail": 775,
        "min": 776,
        "tre": 777,
        "ref": 778,
        "also": 779,
        "@oub": 780,
        "@cy": 781,
        "began": 782,
        "@most": 783,
        "@ows": 784,
        "pur": 785,
        "@ully": 786,
        "ter": 787,
        "act": 788,
        "@ised": 789,
        "@act": 790,
        "having": 791,
        "@vent": 792,
        "dra": 793,
        "enough": 794,
        "dear": 795,
        "gener": 796,
        "seen": 797,
        "lady": 798,
        "@ared": 799,
        "@ash": 800,
        "hum": 801,
        "@aster": 802,
        "@aken": 803,
        "@oke": 804,
        "inde": 805,
        "called": 806,
        "hour": 807,
        "@ying": 808,
        "cur": 809,
        "@ps": 810,
        "@ier": 811,
        "@ason": 812,
        "does": 813,
        "whole": 814,
        "morn": 815,
        "@uth": 816,
        "pleas": 817,
        "turned": 818,
        "@ib": 819,
        "@aps": 820,
        "betw": 821,
        "@ial": 822,
        "@ense": 823,
        "ins": 824,
        "@ream": 825,
        "occ": 826,
        "course": 827,
        "@gether": 828,
        "sou": 829,
        "both": 830,
        "gave": 831,
        "@ired": 832,
        "poor": 833,
        "read": 834,
        "add": 835,
        "@ten": 836,
        "ste": 837,
        "col": 838,
        "bla": 839,
        "@selves": 840,
        "between": 841,
        "among": 842,
        "@ular": 843,
        "beaut": 844,
        "keep": 845,
        "matter": 846,
        "white": 847,
        "morning": 848,
        "@ained": 849,
        "sure": 850,
        "name": 851,
        "@ged": 852,
        "toward": 853,
        "care": 854,
        "whom": 855,
        "small": 856,
        "sk": 857,
        "par": 858,
        "@owed": 859,
        "exc": 860,
        "@ute": 861,
        "lar": 862,
        "pa": 863,
        "@osed": 864,
        "felt": 865,
        "@ating": 866,
        "@bo": 867,
        "open": 868,
        "@ks": 869,
        "@ru": 870,
        "six": 871,
        "myself": 872,
        "however": 873,
        "es": 874,
        "@ond": 875,
        "@xt": 876,
        "herself": 877,
        "stood": 878,
        "hund": 879,
        "hundred": 880,
        "@plied": 881,
        "sent": 882,
        "sim": 883,
        "round": 884,
        "@ife": 885,
        "inc": 886,
        "@ates": 887,
        "almost": 888,
        "point": 889,
        "@tered": 890,
        "days": 891,
        "@ters": 892,
        "@eng": 893,
        "eight": 894,
        "gre": 895,
        "hor": 896,
        "words": 897,
        "fam": 898,
        "@dden": 899,
        "land": 900,
        "@ung": 901,
        "stand": 902,
        "sun": 903,
        "@ird": 904,
        "@haps": 905,
        "mean": 906,
        "perhaps": 907,
        "@iet": 908,
        "@ures": 909,
        "bar": 910,
        "art": 911,
        "sudden": 912,
        "dark": 913,
        "ed": 914,
        "bu": 915,
        "sle": 916,
        "best": 917,
        "@iss": 918,
        "hear": 919,
        "replied": 920,
        "voice": 921,
        "@ton": 922,
        "met": 923,
        "till": 924,
        "che": 925,
        "anything": 926,
        "@ren": 927,
        "underst": 928,
        "until": 929,
        "black": 930,
        "@its": 931,
        "@oud": 932,
        "@ned": 933,
        "looking": 934,
        "prin": 935,
        "cried": 936,
        "suff": 937,
        "red": 938,
        "@ins": 939,
        "@amp": 940,
        "aw": 941,
        "next": 942,
        "less": 943,
        "law": 944,
        "lay": 945,
        "@vel": 946,
        "power": 947,
        "@end": 948,
        "brought": 949,
        "@not": 950,
        "fact": 951,
        "@enty": 952,
        "@up": 953,
        "@ately": 954,
        "country": 955,
        "help": 956,
        "wonder": 957,
        "sn": 958,
        "air": 959,
        "vis": 960,
        "@als": 961,
        "together": 962,
        "quest": 963,
        "@fully": 964,
        "@med": 965,
        "@ove": 966,
        "adv": 967,
        "unc": 968,
        "person": 969,
        "laugh": 970,
        "need": 971,
        "wish": 972,
        "use": 973,
        "indeed": 974,
        "contin": 975,
        "@oney": 976,
        "since": 977,
        "present": 978,
        "gent": 979,
        "har": 980,
        "forg": 981,
        "run": 982,
        "full": 983,
        "rather": 984,
        "ide": 985,
        "feet": 986,
        "cond": 987,
        "@eter": 988,
        "sy": 989,
        "ra": 990,
        "fall": 991,
        "@ok": 992,
        "five": 993,
        "@rib": 994,
        "fin": 995,
        "@cei": 996,
        "bed": 997,
        "mil": 998,
        "@ater": 999
      },
      "merges": [
        "t @h",
        "th @e",
        "@e @r",
        "@n @d",
        "@i @n",
        "@e @d",
        "@o @u",
        "@a @t",
        "@e @n",
        "a @nd",
        "@o @r",
        "@e @s",
        "t @o",
        "o @f",
        "@o @n",
        "@i @s",
        "@in @g",
        "@a @r",
        "@i @t",
        "@a @s",
        "@a @n",
        "@l @l",
        "i @n",
        "@r @e",
        "w @h",
        "h @e",
        "@o @m",
        "b @e",
        "h @a",
        "@l @e",
        "@o @t",
        "@o @w",
        "@i @c",
        "@u @t",
        "i @t",
        "@l @d",
        "th @at",
        "s @h",
        "@l @y",
        "w @as",
        "@g @h",
        "@i @d",
        "@s @e",
        "o @n",
        "@v @e",
        "@e @t",
        "@en @t",
        "y @ou",
        "@i @m",
        "@s @t",
        "@c @e",
        "@it @h",
        "f @or",
        "@i @r",
        "@i @on",
        "a @s",
        "@a @y",
        "h @is",
        "@a @l",
        "w @ith",
        "@u @r",
        "s @t",
        "@t @er",
        "h @er",
        "@v @er",
        "@c @h",
        "r @e",
        "@a @d",
        "@gh @t",
        "a @n",
        "n @ot",
        "ha @d",
        "i @s",
        "s @a",
        "a @t",
        "@o @o",
        "@h @er",
        "b @ut",
        "@ou @ld",
        "sh @e",
        "@c @t",
        "@es @s",
        "f @r",
        "s @e",
        "@a @m",
        "p @r",
        "w @e",
        "h @im",
        "s @o",
        "@i @ll",
        "@a @in",
        "s @u",
        "@i @ght",
        "m @e",
        "@er @e",
        "@a @ll",
        "@k @e",
        "@i @l",
        "d @e",
        "the @y",
        "m @y",
        "a @ll",
        "@es @t",
        "@ic @h",
        "c @h",
        "n @e",
        "b @y",
        "ha @ve",
        "@om @e",
        "@p @p",
        "@c @k",
        "l @i",
        "th @is",
        "@or @e",
        "d @o",
        "c @on",
        "@u @s",
        "wh @ich",
        "@r @i",
        "@u @l",
        "u @p",
        "sa @id",
        "fr @om",
        "@t @h",
        "@ar @d",
        "@g @e",
        "@r @a",
        "o @r",
        "on @e",
        "n @o",
        "e @x",
        "w @ere",
        "the @re",
        "@o @s",
        "@p @e",
        "m @an",
        "@b @le",
        "wh @o",
        "a @l",
        "@an @t",
        "@i @e",
        "@ou @s",
        "@u @st",
        "@at @ion",
        "f @e",
        "@a @nd",
        "the @m",
        "@er @s",
        "@l @f",
        "wh @en",
        "@i @nd",
        "@as @t",
        "@oo @d",
        "g @o",
        "k @n",
        "@u @n",
        "@ou @r",
        "@is @t",
        "@e @m",
        "a @re",
        "@ou @t",
        "w @ould",
        "@ar @t",
        "the @ir",
        "@on @g",
        "wh @at",
        "l @e",
        "e @n",
        "i @f",
        "u @n",
        "@ou @nd",
        "@i @f",
        "c @om",
        "a @b",
        "o @ut",
        "w @or",
        "@o @l",
        "b @r",
        "w @ill",
        "in @t",
        "@a @k",
        "m @is",
        "@at @e",
        "@o @p",
        "@u @m",
        "@ou @gh",
        "@l @a",
        "@it @t",
        "a @r",
        "@oo @k",
        "@is @h",
        "@a @p",
        "@on @e",
        "be @en",
        "@ow @n",
        "@am @e",
        "the @n",
        "@v @en",
        "@se @lf",
        "@i @ve",
        "t @r",
        "r @o",
        "@i @g",
        "@re @at",
        "f @a",
        "a @f",
        "s @p",
        "@er @y",
        "q @u",
        "@it @y",
        "@or @t",
        "@o @st",
        "t @w",
        "a @g",
        "c @ould",
        "a @m",
        "@e @l",
        "@a @ke",
        "an @y",
        "s @ome",
        "@u @re",
        "you @r",
        "m @ore",
        "c @an",
        "t @im",
        "@e @p",
        "@nd @er",
        "e @ver",
        "@t @her",
        "@en @ce",
        "@f @e",
        "int @o",
        "@r @y",
        "@o @se",
        "n @ow",
        "@a @u",
        "@a @g",
        "c @l",
        "v @ery",
        "@q @u",
        "@v @ed",
        "b @o",
        "o @ther",
        "d @id",
        "@an @ce",
        "th @an",
        "@itt @le",
        "l @ittle",
        "@in @e",
        "@i @es",
        "@ou @n",
        "l @ook",
        "@w @ay",
        "@ur @n",
        "li @ke",
        "@it @e",
        "g @r",
        "@as @s",
        "@e @ar",
        "@a @ch",
        "l @o",
        "@a @ble",
        "@ou @ght",
        "@ot @her",
        "kn @ow",
        "tim @e",
        "i @m",
        "u @s",
        "c @o",
        "@f @ore",
        "@e @ll",
        "h @ow",
        "@h @ing",
        "a @d",
        "d @ay",
        "@c @c",
        "@a @ck",
        "ab @out",
        "@ad @e",
        "@ic @e",
        "se @e",
        "o @ver",
        "@c @i",
        "@id @e",
        "@p @t",
        "d @is",
        "@in @k",
        "to @o",
        "@w @n",
        "g @reat",
        "af @ter",
        "p @er",
        "pr @o",
        "ag @ain",
        "up @on",
        "@m @ent",
        "ha @nd",
        "h @as",
        "@re @e",
        "@k @ed",
        "@at @her",
        "on @ly",
        "c @ar",
        "@t @ain",
        "@all @y",
        "st @r",
        "f @l",
        "m @ar",
        "p @o",
        "@a @b",
        "we @ll",
        "sh @ould",
        "@p @l",
        "s @ay",
        "g @ood",
        "@ing @s",
        "tw @o",
        "th @r",
        "@u @d",
        "o @ur",
        "@v @ing",
        "@os @s",
        "@t @y",
        "d @own",
        "@i @re",
        "p @e",
        "be @fore",
        "@i @le",
        "a @pp",
        "@v @es",
        "ever @y",
        "it @s",
        "p @l",
        "o @ld",
        "c @r",
        "of @f",
        "@ic @k",
        "m @ade",
        "@i @ed",
        "l @ong",
        "b @l",
        "@a @ge",
        "@b @er",
        "wh @ere",
        "@r @ess",
        "f @ir",
        "m @u",
        "@an @g",
        "ne @ver",
        "m @ust",
        "s @m",
        "su @ch",
        "@u @ll",
        "@f @ul",
        "@ion @s",
        "@f @t",
        "p @re",
        "c @ame",
        "mis @s",
        "@w @ard",
        "@r @o",
        "@e @en",
        "@or @n",
        "@u @e",
        "@i @ld",
        "e @ven",
        "u @nder",
        "the @se",
        "c @ome",
        "@or @d",
        "p @art",
        "s @c",
        "f @o",
        "@at @ed",
        "@n @ess",
        "re @m",
        "i @nd",
        "be @c",
        "m @ay",
        "@p @er",
        "th @ink",
        "mu @ch",
        "@i @ous",
        "mis @ter",
        "w @ay",
        "@oun @t",
        "@l @ed",
        "e @y",
        "l @et",
        "@at @h",
        "th @ought",
        "@e @ct",
        "b @ack",
        "s @pe",
        "g @l",
        "be @t",
        "@ad @y",
        "@f @f",
        "@an @s",
        "j @ust",
        "r @es",
        "fir @st",
        "@is @e",
        "h @o",
        "her @e",
        "d @es",
        "o @wn",
        "o @b",
        "@ri @ed",
        "@c @ed",
        "@c @es",
        "p @la",
        "m @o",
        "con @t",
        "@er @ed",
        "@ar @y",
        "w @ent",
        "him @self",
        "m @en",
        "@m @e",
        "@c @o",
        "@in @t",
        "m @ight",
        "@i @ly",
        "se @em",
        "@i @p",
        "@ot @h",
        "be @g",
        "@ou @se",
        "w @at",
        "com @p",
        "@a @ve",
        "s @w",
        "thr @ough",
        "@i @gh",
        "a @way",
        "e @m",
        "g @et",
        "he @ad",
        "d @on",
        "im @p",
        "be @l",
        "@ll @ow",
        "@en @ed",
        "with @out",
        "@i @z",
        "p @ass",
        "m @ost",
        "li @fe",
        "e @ar",
        "m @ake",
        "con @s",
        "s @om",
        "t @urn",
        "@a @c",
        "@i @v",
        "sh @all",
        "@n @g",
        "th @ose",
        "ey @es",
        "pr @es",
        "a @cc",
        "h @ouse",
        "at @t",
        "som @et",
        "j @o",
        "st @ill",
        "c @all",
        "@e @w",
        "@en @s",
        "@r @ed",
        "o @p",
        "n @ight",
        "w @om",
        "l @ast",
        "@ar @k",
        "not @hing",
        "@ig @n",
        "t @ell",
        "@au @se",
        "l @a",
        "ne @w",
        "s @l",
        "@ct @ion",
        "@if @f",
        "t @ake",
        "be @ing",
        "com @m",
        "man @y",
        "@l @es",
        "in @ter",
        "wor @d",
        "@at @ter",
        "w @r",
        "@ar @e",
        "f @ound",
        "r @et",
        "@on @s",
        "s @er",
        "@as @e",
        "wh @ile",
        "@or @y",
        "sa @w",
        "y @ear",
        "@i @x",
        "p @ut",
        "@op @le",
        "@ie @nd",
        "f @ar",
        "@d @y",
        "you @ng",
        "@ak @ing",
        "on @ce",
        "fr @iend",
        "pe @ople",
        "@et @her",
        "@a @ir",
        "@i @ble",
        "wor @k",
        "@or @s",
        "ro @om",
        "@ent @ly",
        "@pe @ct",
        "th @ree",
        "@t @ed",
        "y @et",
        "@e @ver",
        "sa @me",
        "c @ount",
        "f @ather",
        "r @ight",
        "ch @ild",
        "c @our",
        "an @other",
        "pla @ce",
        "@n @e",
        "th @ough",
        "@it @ion",
        "w @ant",
        "@l @ess",
        "@in @ce",
        "k @ing",
        "e @nd",
        "ha @pp",
        "he @art",
        "@i @an",
        "n @at",
        "@th @ing",
        "g @ra",
        "fa @ce",
        "too @k",
        "lo @ve",
        "d @ist",
        "@a @ce",
        "ar @m",
        "in @st",
        "re @p",
        "@m @an",
        "@al @k",
        "@ul @t",
        "n @or",
        "@c @l",
        "t @e",
        "s @et",
        "p @le",
        "ch @ar",
        "look @ed",
        "miss @us",
        "l @ight",
        "@g @g",
        "m @ind",
        "as @ked",
        "su @pp",
        "w @a",
        "l @l",
        "y @es",
        "le @ft",
        "@c @ess",
        "a @c",
        "@u @b",
        "@t @ing",
        "@ish @ed",
        "p @ers",
        "th @ings",
        "@au @gh",
        "@ent @s",
        "s @ir",
        "@way @s",
        "@t @e",
        "m @om",
        "ne @ar",
        "@ir @l",
        "@ation @s",
        "@s @w",
        "s @at",
        "f @ind",
        "@se @l",
        "wor @ld",
        "@d @er",
        "@i @a",
        "@re @w",
        "@j @ect",
        "@ow @er",
        "@fe @ct",
        "g @ive",
        "@a @v",
        "g @en",
        "c @ap",
        "g @u",
        "wh @y",
        "@ic @t",
        "m @other",
        "al @ways",
        "@l @ing",
        "@s @o",
        "@pp @ed",
        "so @on",
        "@i @ver",
        "an @sw",
        "@d @en",
        "for @m",
        "w @ar",
        "he @ard",
        "th @ing",
        "seem @ed",
        "somet @hing",
        "do @or",
        "su @b",
        "@p @h",
        "g @irl",
        "@an @ge",
        "go @d",
        "@u @nd",
        "w @ind",
        "m @on",
        "d @iff",
        "bec @ause",
        "@er @tain",
        "@d @e",
        "to @ld",
        "go @ing",
        "h @ome",
        "k @e",
        "@ith @er",
        "g @ot",
        "e @l",
        "@or @m",
        "@re @t",
        "h @igh",
        "@o @ck",
        "s @ur",
        "@ch @ed",
        "en @g",
        "m @a",
        "g @i",
        "@l @and",
        "hand @s",
        "wom @an",
        "mom @ent",
        "@an @k",
        "p @h",
        "v @o",
        "p @oss",
        "@a @ut",
        "fo @llow",
        "v @e",
        "d @r",
        "@n @ing",
        "fe @el",
        "@p @le",
        "e @v",
        "@l @t",
        "@ic @al",
        "ret @urn",
        "bo @y",
        "kn @ew",
        "re @g",
        "r @est",
        "e @ach",
        "k @ind",
        "@n @er",
        "in @f",
        "con @f",
        "t @ra",
        "c @le",
        "@us @h",
        "o @h",
        "he @l",
        "s @il",
        "@or @r",
        "re @l",
        "@u @al",
        "as @s",
        "w @o",
        "@ar @s",
        "c @ertain",
        "again @st",
        "wat @er",
        "b @re",
        "@ce @pt",
        "@u @ck",
        "bel @ie",
        "ex @p",
        "h @ard",
        "pr @op",
        "year @s",
        "be @h",
        "qu @ite",
        "@in @ess",
        "un @t",
        "@in @ed",
        "s @ide",
        "de @l",
        "app @ear",
        "f @our",
        "fe @w",
        "bet @ter",
        "d @one",
        "@oo @l",
        "ha @lf",
        "@it @ed",
        "@a @il",
        "m @in",
        "t @re",
        "re @f",
        "al @so",
        "@ou @b",
        "@c @y",
        "beg @an",
        "@m @ost",
        "@ow @s",
        "p @ur",
        "@ull @y",
        "t @er",
        "a @ct",
        "@is @ed",
        "@a @ct",
        "ha @ving",
        "@v @ent",
        "d @ra",
        "en @ough",
        "de @ar",
        "gen @er",
        "se @en",
        "l @ady",
        "@ar @ed",
        "@as @h",
        "h @um",
        "@as @ter",
        "@ak @en",
        "@o @ke",
        "ind @e",
        "call @ed",
        "h @our",
        "@y @ing",
        "c @ur",
        "@p @s",
        "@i @er",
        "@as @on",
        "do @es",
        "who @le",
        "m @orn",
        "@ut @h",
        "ple @as",
        "turn @ed",
        "@i @b",
        "@ap @s",
        "bet @w",
        "@i @al",
        "@en @se",
        "in @s",
        "@re @am",
        "o @cc",
        "cour @se",
        "@g @ether",
        "s @ou",
        "b @oth",
        "g @ave",
        "@ir @ed",
        "po @or",
        "re @ad",
        "ad @d",
        "@t @en",
        "st @e",
        "c @ol",
        "b @la",
        "@sel @ves",
        "betw @een",
        "am @ong",
        "@ul @ar",
        "be @aut",
        "ke @ep",
        "m @atter",
        "wh @ite",
        "morn @ing",
        "@ain @ed",
        "su @re",
        "n @ame",
        "@g @ed",
        "to @ward",
        "car @e",
        "wh @om",
        "sm @all",
        "s @k",
        "p @ar",
        "@ow @ed",
        "ex @c",
        "@ut @e",
        "l @ar",
        "p @a",
        "@os @ed",
        "fe @lt",
        "@at @ing",
        "@b @o",
        "op @en",
        "@k @s",
        "@r @u",
        "s @ix",
        "my @self",
        "how @ever",
        "e @s",
        "@o @nd",
        "@x @t",
        "her @self",
        "st @ood",
        "h @und",
        "hund @red",
        "@pl @ied",
        "s @ent",
        "s @im",
        "r @ound",
        "@if @e",
        "in @c",
        "@at @es",
        "al @most",
        "po @int",
        "@ter @ed",
        "day @s",
        "@ter @s",
        "@en @g",
        "e @ight",
        "g @re",
        "h @or",
        "word @s",
        "f @am",
        "@d @den",
        "l @and",
        "@un @g",
        "st @and",
        "su @n",
        "@ir @d",
        "@h @aps",
        "me @an",
        "per @haps",
        "@i @et",
        "@ur @es",
        "b @ar",
        "ar @t",
        "su @dden",
        "d @ark",
        "e @d",
        "b @u",
        "s @le",
        "b @est",
        "@is @s",
        "he @ar",
        "re @plied",
        "vo @ice",
        "@t @on",
        "m @et",
        "t @ill",
        "ch @e",
        "any @thing",
        "@r @en",
        "under @st",
        "unt @il",
        "bla @ck",
        "@it @s",
        "@ou @d",
        "@n @ed",
        "look @ing",
        "pr @in",
        "c @ried",
        "su @ff",
        "r @ed",
        "@in @s",
        "@am @p",
        "a @w",
        "ne @xt",
        "l @ess",
        "la @w",
        "l @ay",
        "@ve @l",
        "p @ower",
        "@e @nd",
        "br @ought",
        "@n @ot",
        "fa @ct",
        "@ent @y",
        "@u @p",
        "@ate @ly",
        "count @ry",
        "hel @p",
        "wo @nder",
        "s @n",
        "a @ir",
        "v @is",
        "@al @s",
        "to @gether",
        "qu @est",
        "@f @ully",
        "@m @ed",
        "@o @ve",
        "ad @v",
        "un @c",
        "pers @on",
        "l @augh",
        "ne @ed",
        "w @ish",
        "u @se",
        "inde @ed",
        "cont @in",
        "@one @y",
        "s @ince",
        "pres @ent",
        "g @ent",
        "h @ar",
        "for @g",
        "r @un",
        "f @ull",
        "r @ather",
        "i @de",
        "fe @et",
        "co @nd",
        "@et @er",
        "s @y",
        "r @a",
        "f @all",
        "@o @k",
        "f @ive",
        "@ri @b",
        "f @in",
        "@ce @i",
        "b @ed",
        "m @il",
        "@at @er"
      ]
    }
  }
  